TRT-7000-EntropyCalibration2
input_image: 3f8c3e90
conv1/convolution: 4140ad86
bn_conv1/batchnorm/mul_1: 3dc869c7
bn_conv1/batchnorm/add_1: 3de38286
activation_1/Relu: 3de14ac5
block_1a_conv_1/convolution: 3e2bd052
block_1a_bn_1/batchnorm/mul_1: 3ddbd342
block_1a_bn_1/batchnorm/add_1: 3dda75e2
activation_2/Relu: 3d971d2d
block_1a_conv_2/convolution: 3dd57b6f
block_1a_bn_2/batchnorm/mul_1: 3e360d4d
block_1a_bn_2/batchnorm/add_1: 3df7014a
block_1a_conv_shortcut/convolution: 3d76ed5e
block_1a_bn_shortcut/batchnorm/mul_1: 3e02024a
block_1a_bn_shortcut/batchnorm/add_1: 3dc18224
add_1/add: 3e4f8c6b
activation_3/Relu: 3e4ebe69
block_1b_conv_1/convolution: 3e61f2bd
block_1b_bn_1/batchnorm/mul_1: 3e06244f
block_1b_bn_1/batchnorm/add_1: 3db87f65
activation_4/Relu: 3d7f1a53
block_1b_conv_2/convolution: 3d9f3319
block_1b_bn_2/batchnorm/mul_1: 3e07acd5
block_1b_bn_2/batchnorm/add_1: 3ddf9e39
block_1b_conv_shortcut/convolution: 3dd0159f
block_1b_bn_shortcut/batchnorm/mul_1: 3ddd2c69
block_1b_bn_shortcut/batchnorm/add_1: 3dc97faa
add_2/add: 3e160071
activation_5/Relu: 3e0f467a
block_2a_conv_1/convolution: 3dad8b3e
block_2a_bn_1/batchnorm/mul_1: 3db381e4
block_2a_bn_1/batchnorm/add_1: 3da8be39
activation_6/Relu: 3da8f331
block_2a_conv_2/convolution: 3d9dedd6
block_2a_bn_2/batchnorm/mul_1: 3e095586
block_2a_bn_2/batchnorm/add_1: 3ddedbf6
block_2a_conv_shortcut/convolution: 3d04310d
block_2a_bn_shortcut/batchnorm/mul_1: 3d952f7d
block_2a_bn_shortcut/batchnorm/add_1: 3d7b300b
add_3/add: 3e01da67
activation_7/Relu: 3e036b2e
block_2b_conv_1/convolution: 3db4b008
block_2b_bn_1/batchnorm/mul_1: 3da6ddb6
block_2b_bn_1/batchnorm/add_1: 3d9d76a5
activation_8/Relu: 3d807c99
block_2b_conv_2/convolution: 3cd792da
block_2b_bn_2/batchnorm/mul_1: 3e01a7d0
block_2b_bn_2/batchnorm/add_1: 3dd2475c
block_2b_conv_shortcut/convolution: 3d2a55b8
block_2b_bn_shortcut/batchnorm/mul_1: 3ddbe2fe
block_2b_bn_shortcut/batchnorm/add_1: 3dbfea78
add_4/add: 3e07cc6c
activation_9/Relu: 3e0c68fb
block_3a_conv_1/convolution: 3da14374
block_3a_bn_1/batchnorm/mul_1: 3daf6a74
block_3a_bn_1/batchnorm/add_1: 3d857900
activation_10/Relu: 3d857900
block_3a_conv_2/convolution: 3d08e807
block_3a_bn_2/batchnorm/mul_1: 3de0c030
block_3a_bn_2/batchnorm/add_1: 3dc669fb
block_3a_conv_shortcut/convolution: 3cba490e
block_3a_bn_shortcut/batchnorm/mul_1: 3d721156
block_3a_bn_shortcut/batchnorm/add_1: 3d309aa9
add_5/add: 3de45d5d
activation_11/Relu: 3dcb506e
block_3b_conv_1/convolution: 3db90071
block_3b_bn_1/batchnorm/mul_1: 3d96579d
block_3b_bn_1/batchnorm/add_1: 3d85cb94
activation_12/Relu: 3d464d96
block_3b_conv_2/convolution: 3ce72a0e
block_3b_bn_2/batchnorm/mul_1: 3dcba015
block_3b_bn_2/batchnorm/add_1: 3db4fab4
block_3b_conv_shortcut/convolution: 3d073afa
block_3b_bn_shortcut/batchnorm/mul_1: 3d9a14ac
block_3b_bn_shortcut/batchnorm/add_1: 3d796f7d
add_6/add: 3de3f308
activation_13/Relu: 3dda110f
rpn_conv1/convolution: 3d3c42b0
rpn_conv1/BiasAdd: 3d2dab77
rpn_conv1/Relu: 3d60784c
rpn_out_class/convolution: 3e47fffa
rpn_out_class/BiasAdd: 3e3f2158
rpn_out_class/Sigmoid: 3c011150
rpn_out_regress/convolution: 3c4293a1
rpn_out_regress/BiasAdd: 3c5351f8
proposal: 3c010a14
roi_pooling_conv_1/CropAndResize_new: 3d64094f
time_distributed_1/convolution: 3d4bf500
time_distributed_2/batchnorm/mul_1: 3d7a12c3
time_distributed_2/batchnorm/add_1: 3d65aaa2
activation_14/Relu: 3d385bf4
time_distributed_3/convolution: 3c7e28be
time_distributed_4/batchnorm/mul_1: 3db00f7f
time_distributed_4/batchnorm/add_1: 3d9abd6c
time_distributed_5/convolution: 3c7eda33
time_distributed_6/batchnorm/mul_1: 3d5ced14
time_distributed_6/batchnorm/add_1: 3d527b06
add_7/add: 3dc6f217
activation_15/Relu: 3d9327d9
time_distributed_7/convolution: 3d39fce4
time_distributed_8/batchnorm/mul_1: 3d8e568d
time_distributed_8/batchnorm/add_1: 3da1ff80
activation_16/Relu: 3d4c9c0a
time_distributed_9/convolution: 3c357ed3
time_distributed_10/batchnorm/mul_1: 3e47ebe6
time_distributed_10/batchnorm/add_1: 3e396463
time_distributed_11/convolution: 3c347d39
time_distributed_12/batchnorm/mul_1: 3e01f0a7
time_distributed_12/batchnorm/add_1: 3df2278f
add_8/add: 3e6ed0e5
activation_17/Relu: 3e7f5210
time_distributed_flatten/Reshape_1: 3e7f5210
dense_regress_td/MatMul: 3cea079c
dense_regress_td/BiasAdd: 3cf6aceb
dense_class_td/MatMul: 3e0001c2
dense_class_td/BiasAdd: 3dffd17f
dense_class_td/Softmax: 3c010a14
